11100101
11101010
11110011
11101101
00001111
00011000
00011000
00000001
00001111
00010001
11111101
11111011
11110001
00001010
00001111
00000010
00000101
00010101
00000000
00010101
00010011
11111011
00010110
00000111
11110100
00010110
11110101
11100110
00010101
00010000
00010001
11111001
11101111
00000111
00010001
11100110
11111111
00000001
00010100
00000110
11111000
00010010
00001111
00000111
00001100
11110000
11111111
11111110
11111000
11111010
11111111
11110100
11101111
11101111
00001001
11101101
00001011
11111111
11111001
00001000
11111000
00011010
11101110
00001110
00010110
11100001
11111110
11110101
10011111
00011010
00010000
11001000
11101100
00000100
11110011
00010101
00000110
00010001
00001000
00010011
00001110
11111001
11111010
00000100
00000110
00000000
00001110
00000001
11111101
00011011
00001110
11111011
11110110
00010101
11110001
00000001
00001111
11110110
00000010
00000110
11111101
00000110
11110100
00010001
00011010
11110111
00001000
11111100
00100001
00100011
00000001
00010100
11001110
11001001
11111110
10110001
10101111
11111111
00000101
11111011
11110110
00000000
00001011
11100111
00001011
00001101
00000110
00000010
00001001
00001000
00010011
00000110
00010111
11110101
00001011
00001100
11111100
11111000
00010000
00000010
11101101
00010111
11110100
11110101
00001101
11111000
00010111
11101111
00010011
11110111
00001000
11101011
11111000
00000101
11110011
00010101
11110101
11110010
00010111
11110111
11110010
00001110
00001000
00001011
00001011
00001010
11110110
11111101
00010000
00001010
11110100
00000101
00001011
11101011
00001001
00001011
11110100
00000010
00001011
11101111
00010111
00011011
11110001
00010000
00000010
00010010
11111010
11111011
11110100
00000011
00011010
11101110
00000111
00010101
11110110
00001000
00001111
00000010
00010100
00000101
00000111
00000001
00001000
00001110
11011000
11101010
00000101
00001010
00001000
11101100
11110001
00001010
00010110
11111100
00010110
00000111
11110010
00011110
00000110
11110011
00001101
00001011
11101110
11110111
11111101
00010001
00001010
11110010
00001001
00010100
00010011
00001011
00010000
11101110
00010011
00000111
00000101
00001011
11110001
00000000
11110000
00001011
00010100
00011011
11110000
11101011
00010101
00000101
00000101
00010111
11111010
11111001
11101111
11111001
00001101
11111100
00001101
11111111
11110001
00010000
00001001
11111100
11110010
00000100
00010001
00001101
00001000
11110101
00011001
00001000
11111011
00000101
11111110
11101010
00000101
11110100
11111001
00010110
00010011
00100001
11101000
10111100
00010010
00010000
11100110
00000110
00100000
00000001
